{
  "version": "1.0",
  "truncation": null,
  "padding": null,
  "added_tokens": [
    {
      "id": 0,
      "content": "<|endoftext|>",
      "single_word": false,
      "lstrip": false,
      "rstrip": false,
      "normalized": false,
      "special": true
    },
    {
      "id": 1,
      "content": "<|padding|>",
      "single_word": false,
      "lstrip": false,
      "rstrip": false,
      "normalized": false,
      "special": true
    },
    {
      "id": 2,
      "content": "<|system|>",
      "single_word": false,
      "lstrip": false,
      "rstrip": false,
      "normalized": false,
      "special": true
    },
    {
      "id": 3,
      "content": "<|user|>",
      "single_word": false,
      "lstrip": false,
      "rstrip": false,
      "normalized": false,
      "special": true
    },
    {
      "id": 4,
      "content": "<|assistant|>",
      "single_word": false,
      "lstrip": false,
      "rstrip": false,
      "normalized": false,
      "special": true
    }
  ],
  "normalizer": null,
  "pre_tokenizer": {
    "type": "ByteLevel",
    "add_prefix_space": false,
    "trim_offsets": true,
    "use_regex": true
  },
  "post_processor": {
    "type": "ByteLevel",
    "add_prefix_space": true,
    "trim_offsets": false,
    "use_regex": true
  },
  "decoder": {
    "type": "ByteLevel",
    "add_prefix_space": true,
    "trim_offsets": true,
    "use_regex": true
  },
  "model": {
    "type": "BPE",
    "dropout": null,
    "unk_token": null,
    "continuing_subword_prefix": null,
    "end_of_word_suffix": null,
    "fuse_unk": false,
    "byte_fallback": false,
    "ignore_merges": false,
    "vocab": {
      "<|endoftext|>": 0,
      "<|padding|>": 1,
      "<|system|>": 2,
      "<|user|>": 3,
      "<|assistant|>": 4,
      "!": 5,
      "\"": 6,
      "#": 7,
      "$": 8,
      "%": 9,
      "&": 10,
      "'": 11,
      "(": 12,
      ")": 13,
      "*": 14,
      "+": 15,
      ",": 16,
      "-": 17,
      ".": 18,
      "/": 19,
      "0": 20,
      "1": 21,
      "2": 22,
      "3": 23,
      "4": 24,
      "5": 25,
      "6": 26,
      "7": 27,
      "8": 28,
      "9": 29,
      ":": 30,
      ";": 31,
      "<": 32,
      "=": 33,
      ">": 34,
      "?": 35,
      "@": 36,
      "A": 37,
      "B": 38,
      "C": 39,
      "D": 40,
      "E": 41,
      "F": 42,
      "G": 43,
      "H": 44,
      "I": 45,
      "J": 46,
      "K": 47,
      "L": 48,
      "M": 49,
      "N": 50,
      "O": 51,
      "P": 52,
      "Q": 53,
      "R": 54,
      "S": 55,
      "T": 56,
      "U": 57,
      "V": 58,
      "W": 59,
      "X": 60,
      "Y": 61,
      "Z": 62,
      "[": 63,
      "\\": 64,
      "]": 65,
      "^": 66,
      "_": 67,
      "`": 68,
      "a": 69,
      "b": 70,
      "c": 71,
      "d": 72,
      "e": 73,
      "f": 74,
      "g": 75,
      "h": 76,
      "i": 77,
      "j": 78,
      "k": 79,
      "l": 80,
      "m": 81,
      "n": 82,
      "o": 83,
      "p": 84,
      "q": 85,
      "r": 86,
      "s": 87,
      "t": 88,
      "u": 89,
      "v": 90,
      "w": 91,
      "x": 92,
      "y": 93,
      "z": 94,
      "{": 95,
      "|": 96,
      "}": 97,
      "~": 98,
      "¡": 99,
      "¢": 100,
      "£": 101,
      "¤": 102,
      "¥": 103,
      "¦": 104,
      "§": 105,
      "¨": 106,
      "©": 107,
      "ª": 108,
      "«": 109,
      "¬": 110,
      "®": 111,
      "¯": 112,
      "°": 113,
      "±": 114,
      "²": 115,
      "³": 116,
      "´": 117,
      "µ": 118,
      "¶": 119,
      "·": 120,
      "¸": 121,
      "¹": 122,
      "º": 123,
      "»": 124,
      "¼": 125,
      "½": 126,
      "¾": 127,
      "¿": 128,
      "À": 129,
      "Á": 130,
      "Â": 131,
      "Ã": 132,
      "Ä": 133,
      "Å": 134,
      "Æ": 135,
      "Ç": 136,
      "È": 137,
      "É": 138,
      "Ê": 139,
      "Ë": 140,
      "Ì": 141,
      "Í": 142,
      "Î": 143,
      "Ï": 144,
      "Ð": 145,
      "Ñ": 146,
      "Ò": 147,
      "Ó": 148,
      "Ô": 149,
      "Õ": 150,
      "Ö": 151,
      "×": 152,
      "Ø": 153,
      "Ù": 154,
      "Ú": 155,
      "Û": 156,
      "Ü": 157,
      "Ý": 158,
      "Þ": 159,
      "ß": 160,
      "à": 161,
      "á": 162,
      "â": 163,
      "ã": 164,
      "ä": 165,
      "å": 166,
      "æ": 167,
      "ç": 168,
      "è": 169,
      "é": 170,
      "ê": 171,
      "ë": 172,
      "ì": 173,
      "í": 174,
      "î": 175,
      "ï": 176,
      "ð": 177,
      "ñ": 178,
      "ò": 179,
      "ó": 180,
      "ô": 181,
      "õ": 182,
      "ö": 183,
      "÷": 184,
      "ø": 185,
      "ù": 186,
      "ú": 187,
      "û": 188,
      "ü": 189,
      "ý": 190,
      "þ": 191,
      "ÿ": 192,
      "Ā": 193,
      "ā": 194,
      "Ă": 195,
      "ă": 196,
      "Ą": 197,
      "ą": 198,
      "Ć": 199,
      "ć": 200,
      "Ĉ": 201,
      "ĉ": 202,
      "Ċ": 203,
      "ċ": 204,
      "Č": 205,
      "č": 206,
      "Ď": 207,
      "ď": 208,
      "Đ": 209,
      "đ": 210,
      "Ē": 211,
      "ē": 212,
      "Ĕ": 213,
      "ĕ": 214,
      "Ė": 215,
      "ė": 216,
      "Ę": 217,
      "ę": 218,
      "Ě": 219,
      "ě": 220,
      "Ĝ": 221,
      "ĝ": 222,
      "Ğ": 223,
      "ğ": 224,
      "Ġ": 225,
      "ġ": 226,
      "Ģ": 227,
      "ģ": 228,
      "Ĥ": 229,
      "ĥ": 230,
      "Ħ": 231,
      "ħ": 232,
      "Ĩ": 233,
      "ĩ": 234,
      "Ī": 235,
      "ī": 236,
      "Ĭ": 237,
      "ĭ": 238,
      "Į": 239,
      "į": 240,
      "İ": 241,
      "ı": 242,
      "Ĳ": 243,
      "ĳ": 244,
      "Ĵ": 245,
      "ĵ": 246,
      "Ķ": 247,
      "ķ": 248,
      "ĸ": 249,
      "Ĺ": 250,
      "ĺ": 251,
      "Ļ": 252,
      "ļ": 253,
      "Ľ": 254,
      "ľ": 255,
      "Ŀ": 256,
      "ŀ": 257,
      "Ł": 258,
      "ł": 259,
      "Ń": 260,
      "Ġt": 261,
      "is": 262,
      "he": 263,
      "an": 264,
      "čĊ": 265,
      "in": 266,
      "er": 267,
      "Ġa": 268,
      "Ġw": 269,
      "ss": 270,
      "ou": 271,
      "Ġthe": 272,
      "on": 273,
      "Ġis": 274,
      "re": 275,
      "ĠA": 276,
      "ant": 277,
      "ic": 278,
      "Ġs": 279,
      "ist": 280,
      "Us": 281,
      "ssist": 282,
      "ĠAssist": 283,
      "User": 284,
      "ĠAssistant": 285,
      "Ġm": 286,
      "ĠI": 287,
      "ing": 288,
      "Ġb": 289,
      "et": 290,
      "Ġl": 291,
      "it": 292,
      "Ġy": 293,
      "Ġf": 294,
      "Ġo": 295,
      "Ġyou": 296,
      "el": 297,
      "st": 298,
      "Ġc": 299,
      "Ġin": 300,
      "or": 301,
      "al": 302,
      "ion": 303,
      "ke": 304,
      "Ġof": 305,
      "Ġg": 306,
      "oo": 307,
      "at": 308,
      "Ġn": 309,
      "Ġp": 310,
      "Ġd": 311,
      "Ġto": 312,
      "The": 313,
      "un": 314,
      "es": 315,
      "Ġli": 316,
      "Ġlike": 317,
      "as": 318,
      "Ġmu": 319,
      "en": 320,
      "tion": 321,
      "ĠW": 322,
      "ra": 323,
      "Ġwas": 324,
      "ld": 325,
      "ank": 326,
      "ay": 327,
      "Ġti": 328,
      "ks": 329,
      "king": 330,
      "Ġfor": 331,
      "ed": 332,
      "ow": 333,
      "ea": 334,
      "ap": 335,
      "om": 336,
      "ĠC": 337,
      "ol": 338,
      "oc": 339,
      "ter": 340,
      "ĠIt": 341,
      "Ġth": 342,
      "Ġme": 343,
      "Ġat": 344,
      "py": 345,
      "appy": 346,
      "id": 347,
      "Ġloo": 348,
      "Ġam": 349,
      "hat": 350,
      "ĠWhat": 351,
      "Th": 352,
      "ĠTh": 353,
      "ould": 354,
      "day": 355,
      "ĠH": 356,
      "Ġan": 357,
      "la": 358,
      "rest": 359,
      "'m": 360,
      "ĠY": 361,
      "sic": 362,
      "Ġmusic": 363,
      "ood": 364,
      "Do": 365,
      "ĠDo": 366,
      "iction": 367,
      "eting": 368,
      "Ġmeeting": 369,
      "Ġinter": 370,
      "em": 371,
      "Ġsy": 372,
      "Ġit": 373,
      "ri": 374,
      "ly": 375,
      "ar": 376,
      "Ġtim": 377,
      "ver": 378,
      "am": 379,
      "Ġun": 380,
      "rav": 381,
      "ous": 382,
      "Ġwor": 383,
      "Ġand": 384,
      "Ġas": 385,
      "Ġwh": 386,
      "est": 387,
      "ical": 388,
      "Ġne": 389,
      "Ġh": 390,
      "ess": 391,
      "Ġsun": 392,
      "her": 393,
      "Ġco": 394,
      "fe": 395,
      "Ġsh": 396,
      "loc": 397,
      "Ġst": 398,
      "locks": 399,
      "red": 400,
      "Ġget": 401,
      "Ġtired": 402,
      "ir": 403,
      "irt": 404,
      "Ġal": 405,
      "Ġbank": 406,
      "ome": 407,
      "Ġare": 408,
      "ch": 409,
      "Ġman": 410,
      "Ġgood": 411,
      "Ġpre": 412,
      "etw": 413,
      "ction": 414,
      "Ġwit": 415,
      "ent": 416,
      "Ġwith": 417,
      "pu": 418,
      "stem": 419,
      "Ġsystem": 420,
      "ct": 421,
      "ity": 422,
      "mb": 423,
      "ich": 424,
      "Ġma": 425,
      "Ġwhich": 426,
      "It": 427,
      "rain": 428,
      "reat": 429,
      "ur": 430,
      "ran": 431,
      "vol": 432,
      "ĠR": 433,
      "roc": 434,
      "Ġproc": 435,
      "Ġprocess": 436,
      "eat": 437,
      "ny": 438,
      "sid": 439,
      "tsid": 440,
      "Ġou": 441,
      "Ġweat": 442,
      "Ġlooks": 443,
      "Ġsunny": 444,
      "tside": 445,
      "Ġoutside": 446,
      "Ġweather": 447,
      "ob": 448,
      "een": 449,
      "ffe": 450,
      "ious": 451,
      "icious": 452,
      "elicious": 453,
      "Ġgla": 454,
      "Ġdelicious": 455,
      "ĠThis": 456,
      "Ġcoffe": 457,
      "Ġglad": 458,
      "Ġcoffee": 459,
      "oing": 460,
      "Ġwel": 461,
      "Ġdoing": 462,
      "Ġtoday": 463,
      "Ġthank": 464,
      "ĠHow": 465,
      "Ġasking": 466,
      "Ġwell": 467,
      "Lon": 468,
      "ain": 469,
      "don": 470,
      "ket": 471,
      "tain": 472,
      "uy": 473,
      "ĠLon": 474,
      "Ġtic": 475,
      "Ġtrav": 476,
      "hen": 477,
      "ertain": 478,
      "Ġwould": 479,
      "Ġwhen": 480,
      "Ġbuy": 481,
      "ĠCan": 482,
      "ĠCertain": 483,
      "ĠLondon": 484,
      "Ġticket": 485,
      "Ġtravel": 486,
      "ĠCertainly": 487,
      "eel": 488,
      "Ġrest": 489,
      "Ġsome": 490,
      "Ġfeel": 491,
      "ĠYou": 492,
      "Ġshould": 493,
      "Ġfeeling": 494,
      "wo": 495,
      "Ġtwo": 496,
      "here": 497,
      "reet": 498,
      "Ġblocks": 499,
      "Ġnea": 500,
      "Ġdow": 501,
      "ĠWhere": 502,
      "Ġstreet": 503,
      "Ġnearest": 504,
      "Ġdown": 505,
      "Ġfort": 506,
      "Birt": 507,
      "hday": 508,
      "ĠBirt": 509,
      "Ġso": 510,
      "Ġmuch": 511,
      "ĠThank": 512,
      "ĠHappy": 513,
      "ĠBirthday": 514,
      "if": 515,
      "ĠG": 516,
      "iver": 517,
      "Ġpo": 518,
      "ot": 519,
      "all": 520,
      "Ġpl": 521,
      "ma": 522,
      "ely": 523,
      "nd": 524,
      "Ġby": 525,
      "jo": 526,
      "Ġen": 527,
      "ssical": 528,
      "Ġcla": 529,
      "ĠYes": 530,
      "joy": 531,
      "Ġenjoy": 532,
      "Ġclassical": 533,
      "ies": 534,
      "fer": 535,
      "fiction": 536,
      "Ġboo": 537,
      "Ġfiction": 538,
      "Ġor": 539,
      "Ġnon": 540,
      "Ġlooking": 541,
      "Ġprefer": 542,
      "Ġbook": 543,
      "PM": 544,
      "Ġ2": 545,
      "ĠThe": 546,
      "ĠPM": 547,
      "Ġtime": 548,
      "Ġsk": 549,
      "Ġtimes": 550,
      "Ġbe": 551,
      "ĠS": 552,
      "Al": 553,
      "happy": 554,
      "Ġfam": 555,
      "Ġunhappy": 556,
      "Ġfami": 557,
      "con": 558,
      "ect": 559,
      "lob": 560,
      "net": 561,
      "nect": 562,
      "Ġcom": 563,
      "orks": 564,
      "Ġglob": 565,
      "Ġnetw": 566,
      "Ġintercon": 567,
      "Ġinternet": 568,
      "puter": 569,
      "nected": 570,
      "Ġcomputer": 571,
      "Ġglobal": 572,
      "Ġnetworks": 573,
      "Ġinterconnected": 574,
      "Grav": 575,
      "au": 576,
      "action": 577,
      "dam": 578,
      "ses": 579,
      "tu": 580,
      "tra": 581,
      "ings": 582,
      "Ġbetw": 583,
      "Ġfun": 584,
      "Ġcau": 585,
      "Ġmutu": 586,
      "Ġthings": 587,
      "Ġattra": 588,
      "Ġinteraction": 589,
      "Ġall": 590,
      "ental": 591,
      "Ġmass": 592,
      "Gravity": 593,
      "damental": 594,
      "Ġbetween": 595,
      "Ġfundamental": 596,
      "Ġcauses": 597,
      "Ġmutual": 598,
      "Ġattraction": 599,
      "Ox": 600,
      "gen": 601,
      "mical": 602,
      "umb": 603,
      "ygen": 604,
      "Ġ8": 605,
      "ĠO": 606,
      "Ġel": 607,
      "hemical": 608,
      "Ġchemical": 609,
      "Ġnumb": 610,
      "omic": 611,
      "Ġatomic": 612,
      "ement": 613,
      "Ġsymb": 614,
      "Oxygen": 615,
      "Ġelement": 616,
      "Ġnumber": 617,
      "Ġsymbol": 618,
      "Ġbas": 619,
      "Ġbrain": 620,
      "Ġunit": 621,
      "Ġworking": 622,
      "Ġneur": 623,
      "Ġbasic": 624,
      "Ġneuron": 625,
      "hin": 626,
      "eries": 627,
      "icat": 628,
      "Ġseries": 629,
      "ions": 630,
      "ĠWall": 631,
      "ĠChin": 632,
      "Ġfortif": 633,
      "ĠGreat": 634,
      "ications": 635,
      "ĠChina": 636,
      "Ġfortifications": 637,
      "Fran": 638,
      "Par": 639,
      "ag": 640,
      "ce": 641,
      "gest": 642,
      "lous": 643,
      "ost": 644,
      "ves": 645,
      "zon": 646,
      "ĠFran": 647,
      "ĠAma": 648,
      "Ġmost": 649,
      "Ġlar": 650,
      "ital": 651,
      "Ġcap": 652,
      "Ġcity": 653,
      "Ġinvol": 654,
      "Ġdrain": 655,
      "Ġworld": 656,
      "pulous": 657,
      "ĠRiver": 658,
      "Ġpopulous": 659,
      "Paris": 660,
      "age": 661,
      "ĠFrance": 662,
      "ĠAmazon": 663,
      "Ġlargest": 664,
      "Ġcapital": 665,
      "Ġinvolves": 666,
      "Ġdrainage": 667,
      "En": 668,
      "Sh": 669,
      "ake": 670,
      "ded": 671,
      "gl": 672,
      "gar": 673,
      "pea": 674,
      "rit": 675,
      "spea": 676,
      "Ġre": 677,
      "ĠEn": 678,
      "ish": 679,
      "Ġwid": 680,
      "Ġwrit": 681,
      "Ġgreat": 682,
      "Shake": 683,
      "glish": 684,
      "garded": 685,
      "speare": 686,
      "Ġregarded": 687,
      "ĠEnglish": 688,
      "Ġwidely": 689,
      "Ġwriter": 690,
      "Ġgreatest": 691,
      "Shakespeare": 692,
      "Ph": 693,
      "nt": 694,
      "os": 695,
      "sis": 696,
      "ynt": 697,
      "hesis": 698,
      "ants": 699,
      "Ġfood": 700,
      "Ġmake": 701,
      "otos": 702,
      "Ġplants": 703,
      "Photos": 704,
      "ynthesis": 705,
      "Photosynthesis": 706,
      "act": 707,
      "evol": 708,
      "fact": 709,
      "sit": 710,
      "ust": 711,
      "ution": 712,
      "ufact": 713,
      "Ġtran": 714,
      "ĠInd": 715,
      "rial": 716,
      "Ġnew": 717,
      "Ġmanufact": 718,
      "uring": 719,
      "ĠRevol": 720,
      "Ġprocesses": 721,
      "sition": 722,
      "ustrial": 723,
      "Ġtransition": 724,
      "ĠIndustrial": 725,
      "Ġmanufacturing": 726,
      "ĠRevolution": 727,
      "bo": 728,
      "ev": 729,
      "han": 730,
      "nel": 731,
      "ve": 732,
      "Ġtel": 733,
      "Ġtun": 734,
      "ision": 735,
      "Ġabo": 736,
      "Ġcol": 737,
      "Ġchan": 738,
      "ort": 739,
      "Ġport": 740,
      "Ġdea": 741,
      "Ġsky": 742,
      "evision": 743,
      "Ġtelevision": 744,
      "Ġtuned": 745,
      "Ġabove": 746,
      "Ġcolor": 747,
      "Ġchannel": 748,
      "Ġdead": 749,
      "Ġbest": 750,
      "Ġworst": 751,
      "Ġtoo": 752,
      "ine": 753,
      "Ġwet": 754,
      "Ġnot": 755,
      "Ġdid": 756,
      "Ġshine": 757,
      "Ġplay": 758,
      "gh": 759,
      "pri": 760,
      "ere": 761,
      "Ġwere": 762,
      "ĠApri": 763,
      "Ġbri": 764,
      "Ġclocks": 765,
      "Ġday": 766,
      "Ġthirt": 767,
      "riking": 768,
      "Ġcold": 769,
      "Ġstriking": 770,
      "ght": 771,
      "ĠApril": 772,
      "Ġbright": 773,
      "Ġthirteen": 774,
      "In": 775,
      "bit": 776,
      "rou": 777,
      "ved": 778,
      "Ġthere": 779,
      "Ġgrou": 780,
      "Ġlived": 781,
      "ole": 782,
      "Ġhob": 783,
      "Ġhole": 784,
      "Ġground": 785,
      "Ġhobbit": 786,
      "ck": 787,
      "gin": 788,
      "ged": 789,
      "ife": 790,
      "le": 791,
      "led": 792,
      "ning": 793,
      "now": 794,
      "ru": 795,
      "sal": 796,
      "th": 797,
      "ting": 798,
      "Ġon": 799,
      "Ġver": 800,
      "Ġher": 801,
      "Ġtru": 802,
      "Ġack": 803,
      "Ġwant": 804,
      "Ġwife": 805,
      "ssess": 806,
      "ice": 807,
      "Ġsist": 808,
      "Ġsing": 809,
      "Ġsit": 810,
      "une": 811,
      "Ġmust": 812,
      "Ġthat": 813,
      "Ġuniver": 814,
      "Ġfortune": 815,
      "Ġpossess": 816,
      "Ġbegin": 817,
      "Alice": 818,
      "ledged": 819,
      "nowledged": 820,
      "sally": 821,
      "Ġvery": 822,
      "Ġtruth": 823,
      "Ġacknowledged": 824,
      "Ġsister": 825,
      "Ġsingle": 826,
      "Ġsitting": 827,
      "Ġuniversally": 828,
      "Ġpossession": 829,
      "Ġbeginning": 830,
      "He": 831,
      "lf": 832,
      "tre": 833,
      "ulf": 834,
      "ishe": 835,
      "one": 836,
      "Ġfishe": 837,
      "Ġold": 838,
      "Ġwho": 839,
      "Ġalone": 840,
      "iff": 841,
      "ĠGulf": 842,
      "Ġskiff": 843,
      "ĠStre": 844,
      "Ġfished": 845,
      "ĠStream": 846,
      "Call": 847,
      "cis": 848,
      "go": 849,
      "hma": 850,
      "rs": 851,
      "shma": 852,
      "ind": 853,
      "Ġago": 854,
      "ong": 855,
      "Ġmind": 856,
      "ĠIshma": 857,
      "Ġlong": 858,
      "Ġyea": 859,
      "Ġnever": 860,
      "Ġhow": 861,
      "Ġprecis": 862,
      "ĠSome": 863,
      "ĠIshmael": 864,
      "Ġyears": 865,
      "Ġprecisely": 866,
      "ike": 867,
      "lies": 868,
      "wn": 869,
      "Ġea": 870,
      "Ġway": 871,
      "Ġown": 872,
      "Ġits": 873,
      "Ġhappy": 874,
      "Ġalike": 875,
      "All": 876,
      "Ġfamily": 877,
      "Ġfamilies": 878,
      "Ġeach": 879
    },
    "merges": [
      [
        "Ġ",
        "t"
      ],
      [
        "i",
        "s"
      ],
      [
        "h",
        "e"
      ],
      [
        "a",
        "n"
      ],
      [
        "č",
        "Ċ"
      ],
      [
        "i",
        "n"
      ],
      [
        "e",
        "r"
      ],
      [
        "Ġ",
        "a"
      ],
      [
        "Ġ",
        "w"
      ],
      [
        "s",
        "s"
      ],
      [
        "o",
        "u"
      ],
      [
        "Ġt",
        "he"
      ],
      [
        "o",
        "n"
      ],
      [
        "Ġ",
        "is"
      ],
      [
        "r",
        "e"
      ],
      [
        "Ġ",
        "A"
      ],
      [
        "an",
        "t"
      ],
      [
        "i",
        "c"
      ],
      [
        "Ġ",
        "s"
      ],
      [
        "is",
        "t"
      ],
      [
        "U",
        "s"
      ],
      [
        "ss",
        "ist"
      ],
      [
        "ĠA",
        "ssist"
      ],
      [
        "Us",
        "er"
      ],
      [
        "ĠAssist",
        "ant"
      ],
      [
        "Ġ",
        "m"
      ],
      [
        "Ġ",
        "I"
      ],
      [
        "in",
        "g"
      ],
      [
        "Ġ",
        "b"
      ],
      [
        "e",
        "t"
      ],
      [
        "Ġ",
        "l"
      ],
      [
        "i",
        "t"
      ],
      [
        "Ġ",
        "y"
      ],
      [
        "Ġ",
        "f"
      ],
      [
        "Ġ",
        "o"
      ],
      [
        "Ġy",
        "ou"
      ],
      [
        "e",
        "l"
      ],
      [
        "s",
        "t"
      ],
      [
        "Ġ",
        "c"
      ],
      [
        "Ġ",
        "in"
      ],
      [
        "o",
        "r"
      ],
      [
        "a",
        "l"
      ],
      [
        "i",
        "on"
      ],
      [
        "k",
        "e"
      ],
      [
        "Ġo",
        "f"
      ],
      [
        "Ġ",
        "g"
      ],
      [
        "o",
        "o"
      ],
      [
        "a",
        "t"
      ],
      [
        "Ġ",
        "n"
      ],
      [
        "Ġ",
        "p"
      ],
      [
        "Ġ",
        "d"
      ],
      [
        "Ġt",
        "o"
      ],
      [
        "T",
        "he"
      ],
      [
        "u",
        "n"
      ],
      [
        "e",
        "s"
      ],
      [
        "Ġl",
        "i"
      ],
      [
        "Ġli",
        "ke"
      ],
      [
        "a",
        "s"
      ],
      [
        "Ġm",
        "u"
      ],
      [
        "e",
        "n"
      ],
      [
        "t",
        "ion"
      ],
      [
        "Ġ",
        "W"
      ],
      [
        "r",
        "a"
      ],
      [
        "Ġw",
        "as"
      ],
      [
        "l",
        "d"
      ],
      [
        "an",
        "k"
      ],
      [
        "a",
        "y"
      ],
      [
        "Ġt",
        "i"
      ],
      [
        "k",
        "s"
      ],
      [
        "k",
        "ing"
      ],
      [
        "Ġf",
        "or"
      ],
      [
        "e",
        "d"
      ],
      [
        "o",
        "w"
      ],
      [
        "e",
        "a"
      ],
      [
        "a",
        "p"
      ],
      [
        "o",
        "m"
      ],
      [
        "Ġ",
        "C"
      ],
      [
        "o",
        "l"
      ],
      [
        "o",
        "c"
      ],
      [
        "t",
        "er"
      ],
      [
        "ĠI",
        "t"
      ],
      [
        "Ġt",
        "h"
      ],
      [
        "Ġm",
        "e"
      ],
      [
        "Ġa",
        "t"
      ],
      [
        "p",
        "y"
      ],
      [
        "ap",
        "py"
      ],
      [
        "i",
        "d"
      ],
      [
        "Ġl",
        "oo"
      ],
      [
        "Ġa",
        "m"
      ],
      [
        "h",
        "at"
      ],
      [
        "ĠW",
        "hat"
      ],
      [
        "T",
        "h"
      ],
      [
        "Ġ",
        "Th"
      ],
      [
        "ou",
        "ld"
      ],
      [
        "d",
        "ay"
      ],
      [
        "Ġ",
        "H"
      ],
      [
        "Ġ",
        "an"
      ],
      [
        "l",
        "a"
      ],
      [
        "re",
        "st"
      ],
      [
        "'",
        "m"
      ],
      [
        "Ġ",
        "Y"
      ],
      [
        "s",
        "ic"
      ],
      [
        "Ġmu",
        "sic"
      ],
      [
        "oo",
        "d"
      ],
      [
        "D",
        "o"
      ],
      [
        "Ġ",
        "Do"
      ],
      [
        "ic",
        "tion"
      ],
      [
        "et",
        "ing"
      ],
      [
        "Ġme",
        "eting"
      ],
      [
        "Ġin",
        "ter"
      ],
      [
        "e",
        "m"
      ],
      [
        "Ġs",
        "y"
      ],
      [
        "Ġ",
        "it"
      ],
      [
        "r",
        "i"
      ],
      [
        "l",
        "y"
      ],
      [
        "a",
        "r"
      ],
      [
        "Ġti",
        "m"
      ],
      [
        "v",
        "er"
      ],
      [
        "a",
        "m"
      ],
      [
        "Ġ",
        "un"
      ],
      [
        "ra",
        "v"
      ],
      [
        "ou",
        "s"
      ],
      [
        "Ġw",
        "or"
      ],
      [
        "Ġan",
        "d"
      ],
      [
        "Ġa",
        "s"
      ],
      [
        "Ġw",
        "h"
      ],
      [
        "e",
        "st"
      ],
      [
        "ic",
        "al"
      ],
      [
        "Ġn",
        "e"
      ],
      [
        "Ġ",
        "h"
      ],
      [
        "e",
        "ss"
      ],
      [
        "Ġs",
        "un"
      ],
      [
        "he",
        "r"
      ],
      [
        "Ġc",
        "o"
      ],
      [
        "f",
        "e"
      ],
      [
        "Ġs",
        "h"
      ],
      [
        "l",
        "oc"
      ],
      [
        "Ġs",
        "t"
      ],
      [
        "loc",
        "ks"
      ],
      [
        "re",
        "d"
      ],
      [
        "Ġg",
        "et"
      ],
      [
        "Ġti",
        "red"
      ],
      [
        "i",
        "r"
      ],
      [
        "ir",
        "t"
      ],
      [
        "Ġa",
        "l"
      ],
      [
        "Ġb",
        "ank"
      ],
      [
        "om",
        "e"
      ],
      [
        "Ġa",
        "re"
      ],
      [
        "c",
        "h"
      ],
      [
        "Ġm",
        "an"
      ],
      [
        "Ġg",
        "ood"
      ],
      [
        "Ġp",
        "re"
      ],
      [
        "et",
        "w"
      ],
      [
        "c",
        "tion"
      ],
      [
        "Ġw",
        "it"
      ],
      [
        "en",
        "t"
      ],
      [
        "Ġwit",
        "h"
      ],
      [
        "p",
        "u"
      ],
      [
        "st",
        "em"
      ],
      [
        "Ġsy",
        "stem"
      ],
      [
        "c",
        "t"
      ],
      [
        "it",
        "y"
      ],
      [
        "m",
        "b"
      ],
      [
        "ic",
        "h"
      ],
      [
        "Ġm",
        "a"
      ],
      [
        "Ġwh",
        "ich"
      ],
      [
        "I",
        "t"
      ],
      [
        "ra",
        "in"
      ],
      [
        "re",
        "at"
      ],
      [
        "u",
        "r"
      ],
      [
        "r",
        "an"
      ],
      [
        "v",
        "ol"
      ],
      [
        "Ġ",
        "R"
      ],
      [
        "r",
        "oc"
      ],
      [
        "Ġp",
        "roc"
      ],
      [
        "Ġproc",
        "ess"
      ],
      [
        "e",
        "at"
      ],
      [
        "n",
        "y"
      ],
      [
        "s",
        "id"
      ],
      [
        "t",
        "sid"
      ],
      [
        "Ġ",
        "ou"
      ],
      [
        "Ġw",
        "eat"
      ],
      [
        "Ġloo",
        "ks"
      ],
      [
        "Ġsun",
        "ny"
      ],
      [
        "tsid",
        "e"
      ],
      [
        "Ġou",
        "tside"
      ],
      [
        "Ġweat",
        "her"
      ],
      [
        "o",
        "b"
      ],
      [
        "e",
        "en"
      ],
      [
        "f",
        "fe"
      ],
      [
        "i",
        "ous"
      ],
      [
        "ic",
        "ious"
      ],
      [
        "el",
        "icious"
      ],
      [
        "Ġg",
        "la"
      ],
      [
        "Ġd",
        "elicious"
      ],
      [
        "ĠTh",
        "is"
      ],
      [
        "Ġco",
        "ffe"
      ],
      [
        "Ġgla",
        "d"
      ],
      [
        "Ġcoffe",
        "e"
      ],
      [
        "o",
        "ing"
      ],
      [
        "Ġw",
        "el"
      ],
      [
        "Ġd",
        "oing"
      ],
      [
        "Ġto",
        "day"
      ],
      [
        "Ġth",
        "ank"
      ],
      [
        "ĠH",
        "ow"
      ],
      [
        "Ġas",
        "king"
      ],
      [
        "Ġwel",
        "l"
      ],
      [
        "L",
        "on"
      ],
      [
        "a",
        "in"
      ],
      [
        "d",
        "on"
      ],
      [
        "k",
        "et"
      ],
      [
        "t",
        "ain"
      ],
      [
        "u",
        "y"
      ],
      [
        "Ġ",
        "Lon"
      ],
      [
        "Ġt",
        "ic"
      ],
      [
        "Ġt",
        "rav"
      ],
      [
        "he",
        "n"
      ],
      [
        "er",
        "tain"
      ],
      [
        "Ġw",
        "ould"
      ],
      [
        "Ġw",
        "hen"
      ],
      [
        "Ġb",
        "uy"
      ],
      [
        "ĠC",
        "an"
      ],
      [
        "ĠC",
        "ertain"
      ],
      [
        "ĠLon",
        "don"
      ],
      [
        "Ġtic",
        "ket"
      ],
      [
        "Ġtrav",
        "el"
      ],
      [
        "ĠCertain",
        "ly"
      ],
      [
        "e",
        "el"
      ],
      [
        "Ġ",
        "rest"
      ],
      [
        "Ġs",
        "ome"
      ],
      [
        "Ġf",
        "eel"
      ],
      [
        "ĠY",
        "ou"
      ],
      [
        "Ġsh",
        "ould"
      ],
      [
        "Ġfeel",
        "ing"
      ],
      [
        "w",
        "o"
      ],
      [
        "Ġt",
        "wo"
      ],
      [
        "he",
        "re"
      ],
      [
        "re",
        "et"
      ],
      [
        "Ġb",
        "locks"
      ],
      [
        "Ġn",
        "ea"
      ],
      [
        "Ġd",
        "ow"
      ],
      [
        "ĠW",
        "here"
      ],
      [
        "Ġst",
        "reet"
      ],
      [
        "Ġnea",
        "rest"
      ],
      [
        "Ġdow",
        "n"
      ],
      [
        "Ġfor",
        "t"
      ],
      [
        "B",
        "irt"
      ],
      [
        "h",
        "day"
      ],
      [
        "Ġ",
        "Birt"
      ],
      [
        "Ġs",
        "o"
      ],
      [
        "Ġmu",
        "ch"
      ],
      [
        "ĠTh",
        "ank"
      ],
      [
        "ĠH",
        "appy"
      ],
      [
        "ĠBirt",
        "hday"
      ],
      [
        "i",
        "f"
      ],
      [
        "Ġ",
        "G"
      ],
      [
        "i",
        "ver"
      ],
      [
        "Ġp",
        "o"
      ],
      [
        "o",
        "t"
      ],
      [
        "al",
        "l"
      ],
      [
        "Ġp",
        "l"
      ],
      [
        "m",
        "a"
      ],
      [
        "el",
        "y"
      ],
      [
        "n",
        "d"
      ],
      [
        "Ġb",
        "y"
      ],
      [
        "j",
        "o"
      ],
      [
        "Ġ",
        "en"
      ],
      [
        "ss",
        "ical"
      ],
      [
        "Ġc",
        "la"
      ],
      [
        "ĠY",
        "es"
      ],
      [
        "jo",
        "y"
      ],
      [
        "Ġen",
        "joy"
      ],
      [
        "Ġcla",
        "ssical"
      ],
      [
        "i",
        "es"
      ],
      [
        "f",
        "er"
      ],
      [
        "f",
        "iction"
      ],
      [
        "Ġb",
        "oo"
      ],
      [
        "Ġf",
        "iction"
      ],
      [
        "Ġo",
        "r"
      ],
      [
        "Ġn",
        "on"
      ],
      [
        "Ġloo",
        "king"
      ],
      [
        "Ġpre",
        "fer"
      ],
      [
        "Ġboo",
        "k"
      ],
      [
        "P",
        "M"
      ],
      [
        "Ġ",
        "2"
      ],
      [
        "Ġ",
        "The"
      ],
      [
        "Ġ",
        "PM"
      ],
      [
        "Ġtim",
        "e"
      ],
      [
        "Ġs",
        "k"
      ],
      [
        "Ġtim",
        "es"
      ],
      [
        "Ġb",
        "e"
      ],
      [
        "Ġ",
        "S"
      ],
      [
        "A",
        "l"
      ],
      [
        "h",
        "appy"
      ],
      [
        "Ġf",
        "am"
      ],
      [
        "Ġun",
        "happy"
      ],
      [
        "Ġfam",
        "i"
      ],
      [
        "c",
        "on"
      ],
      [
        "e",
        "ct"
      ],
      [
        "l",
        "ob"
      ],
      [
        "n",
        "et"
      ],
      [
        "n",
        "ect"
      ],
      [
        "Ġc",
        "om"
      ],
      [
        "or",
        "ks"
      ],
      [
        "Ġg",
        "lob"
      ],
      [
        "Ġn",
        "etw"
      ],
      [
        "Ġinter",
        "con"
      ],
      [
        "Ġinter",
        "net"
      ],
      [
        "pu",
        "ter"
      ],
      [
        "nect",
        "ed"
      ],
      [
        "Ġcom",
        "puter"
      ],
      [
        "Ġglob",
        "al"
      ],
      [
        "Ġnetw",
        "orks"
      ],
      [
        "Ġintercon",
        "nected"
      ],
      [
        "G",
        "rav"
      ],
      [
        "a",
        "u"
      ],
      [
        "a",
        "ction"
      ],
      [
        "d",
        "am"
      ],
      [
        "s",
        "es"
      ],
      [
        "t",
        "u"
      ],
      [
        "t",
        "ra"
      ],
      [
        "ing",
        "s"
      ],
      [
        "Ġb",
        "etw"
      ],
      [
        "Ġf",
        "un"
      ],
      [
        "Ġc",
        "au"
      ],
      [
        "Ġmu",
        "tu"
      ],
      [
        "Ġth",
        "ings"
      ],
      [
        "Ġat",
        "tra"
      ],
      [
        "Ġinter",
        "action"
      ],
      [
        "Ġal",
        "l"
      ],
      [
        "ent",
        "al"
      ],
      [
        "Ġma",
        "ss"
      ],
      [
        "Grav",
        "ity"
      ],
      [
        "dam",
        "ental"
      ],
      [
        "Ġbetw",
        "een"
      ],
      [
        "Ġfun",
        "damental"
      ],
      [
        "Ġcau",
        "ses"
      ],
      [
        "Ġmutu",
        "al"
      ],
      [
        "Ġattra",
        "ction"
      ],
      [
        "O",
        "x"
      ],
      [
        "g",
        "en"
      ],
      [
        "m",
        "ical"
      ],
      [
        "u",
        "mb"
      ],
      [
        "y",
        "gen"
      ],
      [
        "Ġ",
        "8"
      ],
      [
        "Ġ",
        "O"
      ],
      [
        "Ġ",
        "el"
      ],
      [
        "he",
        "mical"
      ],
      [
        "Ġc",
        "hemical"
      ],
      [
        "Ġn",
        "umb"
      ],
      [
        "om",
        "ic"
      ],
      [
        "Ġat",
        "omic"
      ],
      [
        "em",
        "ent"
      ],
      [
        "Ġsy",
        "mb"
      ],
      [
        "Ox",
        "ygen"
      ],
      [
        "Ġel",
        "ement"
      ],
      [
        "Ġnumb",
        "er"
      ],
      [
        "Ġsymb",
        "ol"
      ],
      [
        "Ġb",
        "as"
      ],
      [
        "Ġb",
        "rain"
      ],
      [
        "Ġun",
        "it"
      ],
      [
        "Ġwor",
        "king"
      ],
      [
        "Ġne",
        "ur"
      ],
      [
        "Ġbas",
        "ic"
      ],
      [
        "Ġneur",
        "on"
      ],
      [
        "h",
        "in"
      ],
      [
        "er",
        "ies"
      ],
      [
        "ic",
        "at"
      ],
      [
        "Ġs",
        "eries"
      ],
      [
        "ion",
        "s"
      ],
      [
        "ĠW",
        "all"
      ],
      [
        "ĠC",
        "hin"
      ],
      [
        "Ġfort",
        "if"
      ],
      [
        "ĠG",
        "reat"
      ],
      [
        "icat",
        "ions"
      ],
      [
        "ĠChin",
        "a"
      ],
      [
        "Ġfortif",
        "ications"
      ],
      [
        "F",
        "ran"
      ],
      [
        "P",
        "ar"
      ],
      [
        "a",
        "g"
      ],
      [
        "c",
        "e"
      ],
      [
        "g",
        "est"
      ],
      [
        "l",
        "ous"
      ],
      [
        "o",
        "st"
      ],
      [
        "v",
        "es"
      ],
      [
        "z",
        "on"
      ],
      [
        "Ġ",
        "Fran"
      ],
      [
        "ĠA",
        "ma"
      ],
      [
        "Ġm",
        "ost"
      ],
      [
        "Ġl",
        "ar"
      ],
      [
        "it",
        "al"
      ],
      [
        "Ġc",
        "ap"
      ],
      [
        "Ġc",
        "ity"
      ],
      [
        "Ġin",
        "vol"
      ],
      [
        "Ġd",
        "rain"
      ],
      [
        "Ġwor",
        "ld"
      ],
      [
        "pu",
        "lous"
      ],
      [
        "ĠR",
        "iver"
      ],
      [
        "Ġpo",
        "pulous"
      ],
      [
        "Par",
        "is"
      ],
      [
        "ag",
        "e"
      ],
      [
        "ĠFran",
        "ce"
      ],
      [
        "ĠAma",
        "zon"
      ],
      [
        "Ġlar",
        "gest"
      ],
      [
        "Ġcap",
        "ital"
      ],
      [
        "Ġinvol",
        "ves"
      ],
      [
        "Ġdrain",
        "age"
      ],
      [
        "E",
        "n"
      ],
      [
        "S",
        "h"
      ],
      [
        "a",
        "ke"
      ],
      [
        "d",
        "ed"
      ],
      [
        "g",
        "l"
      ],
      [
        "g",
        "ar"
      ],
      [
        "p",
        "ea"
      ],
      [
        "r",
        "it"
      ],
      [
        "s",
        "pea"
      ],
      [
        "Ġ",
        "re"
      ],
      [
        "Ġ",
        "En"
      ],
      [
        "is",
        "h"
      ],
      [
        "Ġw",
        "id"
      ],
      [
        "Ġw",
        "rit"
      ],
      [
        "Ġg",
        "reat"
      ],
      [
        "Sh",
        "ake"
      ],
      [
        "gl",
        "ish"
      ],
      [
        "gar",
        "ded"
      ],
      [
        "spea",
        "re"
      ],
      [
        "Ġre",
        "garded"
      ],
      [
        "ĠEn",
        "glish"
      ],
      [
        "Ġwid",
        "ely"
      ],
      [
        "Ġwrit",
        "er"
      ],
      [
        "Ġgreat",
        "est"
      ],
      [
        "Shake",
        "speare"
      ],
      [
        "P",
        "h"
      ],
      [
        "n",
        "t"
      ],
      [
        "o",
        "s"
      ],
      [
        "s",
        "is"
      ],
      [
        "y",
        "nt"
      ],
      [
        "he",
        "sis"
      ],
      [
        "ant",
        "s"
      ],
      [
        "Ġf",
        "ood"
      ],
      [
        "Ġma",
        "ke"
      ],
      [
        "ot",
        "os"
      ],
      [
        "Ġpl",
        "ants"
      ],
      [
        "Ph",
        "otos"
      ],
      [
        "ynt",
        "hesis"
      ],
      [
        "Photos",
        "ynthesis"
      ],
      [
        "a",
        "ct"
      ],
      [
        "e",
        "vol"
      ],
      [
        "f",
        "act"
      ],
      [
        "s",
        "it"
      ],
      [
        "u",
        "st"
      ],
      [
        "u",
        "tion"
      ],
      [
        "u",
        "fact"
      ],
      [
        "Ġt",
        "ran"
      ],
      [
        "ĠI",
        "nd"
      ],
      [
        "ri",
        "al"
      ],
      [
        "Ġne",
        "w"
      ],
      [
        "Ġman",
        "ufact"
      ],
      [
        "ur",
        "ing"
      ],
      [
        "ĠR",
        "evol"
      ],
      [
        "Ġprocess",
        "es"
      ],
      [
        "sit",
        "ion"
      ],
      [
        "ust",
        "rial"
      ],
      [
        "Ġtran",
        "sition"
      ],
      [
        "ĠInd",
        "ustrial"
      ],
      [
        "Ġmanufact",
        "uring"
      ],
      [
        "ĠRevol",
        "ution"
      ],
      [
        "b",
        "o"
      ],
      [
        "e",
        "v"
      ],
      [
        "h",
        "an"
      ],
      [
        "n",
        "el"
      ],
      [
        "v",
        "e"
      ],
      [
        "Ġt",
        "el"
      ],
      [
        "Ġt",
        "un"
      ],
      [
        "is",
        "ion"
      ],
      [
        "Ġa",
        "bo"
      ],
      [
        "Ġc",
        "ol"
      ],
      [
        "Ġc",
        "han"
      ],
      [
        "or",
        "t"
      ],
      [
        "Ġp",
        "ort"
      ],
      [
        "Ġd",
        "ea"
      ],
      [
        "Ġsk",
        "y"
      ],
      [
        "ev",
        "ision"
      ],
      [
        "Ġtel",
        "evision"
      ],
      [
        "Ġtun",
        "ed"
      ],
      [
        "Ġabo",
        "ve"
      ],
      [
        "Ġcol",
        "or"
      ],
      [
        "Ġchan",
        "nel"
      ],
      [
        "Ġdea",
        "d"
      ],
      [
        "Ġb",
        "est"
      ],
      [
        "Ġwor",
        "st"
      ],
      [
        "Ġt",
        "oo"
      ],
      [
        "in",
        "e"
      ],
      [
        "Ġw",
        "et"
      ],
      [
        "Ġn",
        "ot"
      ],
      [
        "Ġd",
        "id"
      ],
      [
        "Ġsh",
        "ine"
      ],
      [
        "Ġpl",
        "ay"
      ],
      [
        "g",
        "h"
      ],
      [
        "p",
        "ri"
      ],
      [
        "er",
        "e"
      ],
      [
        "Ġw",
        "ere"
      ],
      [
        "ĠA",
        "pri"
      ],
      [
        "Ġb",
        "ri"
      ],
      [
        "Ġc",
        "locks"
      ],
      [
        "Ġd",
        "ay"
      ],
      [
        "Ġth",
        "irt"
      ],
      [
        "ri",
        "king"
      ],
      [
        "Ġco",
        "ld"
      ],
      [
        "Ġst",
        "riking"
      ],
      [
        "gh",
        "t"
      ],
      [
        "ĠApri",
        "l"
      ],
      [
        "Ġbri",
        "ght"
      ],
      [
        "Ġthirt",
        "een"
      ],
      [
        "I",
        "n"
      ],
      [
        "b",
        "it"
      ],
      [
        "r",
        "ou"
      ],
      [
        "v",
        "ed"
      ],
      [
        "Ġthe",
        "re"
      ],
      [
        "Ġg",
        "rou"
      ],
      [
        "Ġli",
        "ved"
      ],
      [
        "ol",
        "e"
      ],
      [
        "Ġh",
        "ob"
      ],
      [
        "Ġh",
        "ole"
      ],
      [
        "Ġgrou",
        "nd"
      ],
      [
        "Ġhob",
        "bit"
      ],
      [
        "c",
        "k"
      ],
      [
        "g",
        "in"
      ],
      [
        "g",
        "ed"
      ],
      [
        "i",
        "fe"
      ],
      [
        "l",
        "e"
      ],
      [
        "l",
        "ed"
      ],
      [
        "n",
        "ing"
      ],
      [
        "n",
        "ow"
      ],
      [
        "r",
        "u"
      ],
      [
        "s",
        "al"
      ],
      [
        "t",
        "h"
      ],
      [
        "t",
        "ing"
      ],
      [
        "Ġ",
        "on"
      ],
      [
        "Ġ",
        "ver"
      ],
      [
        "Ġ",
        "her"
      ],
      [
        "Ġt",
        "ru"
      ],
      [
        "Ġa",
        "ck"
      ],
      [
        "Ġw",
        "ant"
      ],
      [
        "Ġw",
        "ife"
      ],
      [
        "ss",
        "ess"
      ],
      [
        "ic",
        "e"
      ],
      [
        "Ġs",
        "ist"
      ],
      [
        "Ġs",
        "ing"
      ],
      [
        "Ġs",
        "it"
      ],
      [
        "un",
        "e"
      ],
      [
        "Ġmu",
        "st"
      ],
      [
        "Ġth",
        "at"
      ],
      [
        "Ġun",
        "iver"
      ],
      [
        "Ġfort",
        "une"
      ],
      [
        "Ġpo",
        "ssess"
      ],
      [
        "Ġbe",
        "gin"
      ],
      [
        "Al",
        "ice"
      ],
      [
        "led",
        "ged"
      ],
      [
        "now",
        "ledged"
      ],
      [
        "sal",
        "ly"
      ],
      [
        "Ġver",
        "y"
      ],
      [
        "Ġtru",
        "th"
      ],
      [
        "Ġack",
        "nowledged"
      ],
      [
        "Ġsist",
        "er"
      ],
      [
        "Ġsing",
        "le"
      ],
      [
        "Ġsit",
        "ting"
      ],
      [
        "Ġuniver",
        "sally"
      ],
      [
        "Ġpossess",
        "ion"
      ],
      [
        "Ġbegin",
        "ning"
      ],
      [
        "H",
        "e"
      ],
      [
        "l",
        "f"
      ],
      [
        "t",
        "re"
      ],
      [
        "u",
        "lf"
      ],
      [
        "is",
        "he"
      ],
      [
        "on",
        "e"
      ],
      [
        "Ġf",
        "ishe"
      ],
      [
        "Ġo",
        "ld"
      ],
      [
        "Ġwh",
        "o"
      ],
      [
        "Ġal",
        "one"
      ],
      [
        "if",
        "f"
      ],
      [
        "ĠG",
        "ulf"
      ],
      [
        "Ġsk",
        "iff"
      ],
      [
        "ĠS",
        "tre"
      ],
      [
        "Ġfishe",
        "d"
      ],
      [
        "ĠStre",
        "am"
      ],
      [
        "C",
        "all"
      ],
      [
        "c",
        "is"
      ],
      [
        "g",
        "o"
      ],
      [
        "h",
        "ma"
      ],
      [
        "r",
        "s"
      ],
      [
        "s",
        "hma"
      ],
      [
        "in",
        "d"
      ],
      [
        "Ġa",
        "go"
      ],
      [
        "on",
        "g"
      ],
      [
        "Ġm",
        "ind"
      ],
      [
        "ĠI",
        "shma"
      ],
      [
        "Ġl",
        "ong"
      ],
      [
        "Ġy",
        "ea"
      ],
      [
        "Ġne",
        "ver"
      ],
      [
        "Ġh",
        "ow"
      ],
      [
        "Ġpre",
        "cis"
      ],
      [
        "ĠS",
        "ome"
      ],
      [
        "ĠIshma",
        "el"
      ],
      [
        "Ġyea",
        "rs"
      ],
      [
        "Ġprecis",
        "ely"
      ],
      [
        "i",
        "ke"
      ],
      [
        "l",
        "ies"
      ],
      [
        "w",
        "n"
      ],
      [
        "Ġ",
        "ea"
      ],
      [
        "Ġw",
        "ay"
      ],
      [
        "Ġo",
        "wn"
      ],
      [
        "Ġit",
        "s"
      ],
      [
        "Ġh",
        "appy"
      ],
      [
        "Ġal",
        "ike"
      ],
      [
        "Al",
        "l"
      ],
      [
        "Ġfami",
        "ly"
      ],
      [
        "Ġfami",
        "lies"
      ],
      [
        "Ġea",
        "ch"
      ]
    ]
  }
}